memory_initialization_radix=16;
memory_initialization_vector=
00D0,
0100,
0138,
0108,
0168,
00D0,
00E0,
0178,
00F8,
0118,
00C8,
00D0,
0150,
0070,
0070,
00C8,
00F8,
00B0,
00B0,
0090,
00D8,
01C8,
00C0,
0168,
0040,
01C8,
0140,
00A0,
00B0,
00C0,
0100,
0158,
0040,
0048,
0088,
0160,
0040,
00C8,
0098,
00E8,
0080,
00D0,
0188,
0100,
0090,
0040,
0150,
0128,
00B8,
00F0,
0070,
0090,
00D8,
00E8,
0090,
0098,
00B0,
00D0,
0090,
0140,
01B0,
00F8,
0098,
0168,
0070,
0118,
00A8,
00B8,
00D8,
0068,
0098,
00F0,
0078,
0198,
00D8,
0180,
00F8,
00A0,
00A8,
0090,
0060,
0060,
00E0,
FFB0,
0150,
FFF8,
0128,
0040,
FFE8,
0188,
0090,
0050,
00E0,
00A8,
0158,
0030,
00E0,
0050,
0188,
0018,
0078,
00A8,
00A8,
0080,
0020,
00A0,
00A8,
00A8,
0098,
00A8,
0120,
0108,
0060,
00C8,
00A0,
0028,
0070,
0158,
00C8,
0080,
00F8,
00C0,
00D8,
00D8,
0100,
00F0,
00F8,
00A8,
0100,
0040,
00D0,
0110,
0090,
0090,
0138,
0090,
0038,
01F0,
00A8,
00F8,
00D8,
0098,
01C8,
0090,
0098,
0028,
00D8,
0068,
00D0,
0080,
0078,
00A8,
0100,
0080,
0058,
0148,
0098,
00A8,
0058,
0040,
FFF0,
0070,
01B0,
0068,
0110,
0018,
00C8,
00F0,
0008,
0100,
0088,
00B8,
0160,
0020,
0188,
00E8,
FFD8,
00C0,
00D0,
00B8,
00A0,
0128,
00E8,
00E0,
00E0,
00A8,
00C0,
0110,
00C8,
0108,
00E0,
0018,
0080,
00D8,
0068,
00C8,
0028,
00C8,
0080,
00D0,
00C8,
0060,
0058,
0020,
0040,
0138,
00B0,
0028,
0060,
0068,
00B0,
0080,
0040,
0110,
00C0,
0060,
0090,
0070,
00C8,
00B0,
00C8,
00B8,
0048,
0000,
0158,
0118,
0078,
0150,
0070,
00E8,
0118,
0108,
0190,
0068,
0108,
0018,
00C0,
01B8,
00B8,
00A8,
00F0,
0040,
00F8,
00E8,
00F0,
00B0,
0160,
0050,
0078,
0090,
00E8,
0130,
00F8,
0040,
0178,
0018,
0140,
00A8,
00F8,
00F8,
0188,
0098,
0058,
0050,
00E0,
01A0,
0098,
0060,
00C8,
0048,
00F0,
0080,
0168,
0078,
00A8,
00C0,
00E8,
0060,
00D0,
00D8,
0148,
0078,
0058,
00E8,
01C0,
0108,
0048,
00D8,
00E0,
00C0,
00D0,
00C8,
00C8,
0138,
00E8,
00B8,
0128,
0060,
00C8,
00B8,
00F8,
0130,
0078,
00D0,
00D0,
00D0,
00A8,
00D0,
0088,
0048,
0040,
00C0,
0050,
0070,
0128,
00C0,
0038,
0130,
0150,
00E0,
0168,
0048,
0180,
0128,
0068,
00F8,
00F8,
00E0,
0098,
0050,
0020,
0088,
0148,
0028,
0088,
00E0,
00C0,
0070,
0098,
0010,
0160,
0240,
00D0,
00C0,
0070,
0090,
0080,
00C0,
0178,
0140,
0038,
00F8,
00E8,
0068,
0050,
00E0,
0088,
0090,
00A0,
00E0,
0020,
0048,
0110,
0048,
00D8,
00C0,
00E0,
0068,
0100,
00A8,
0078,
0088,
00B8,
0040,
0028,
00A0,
0040,
0060,
0100,
00D8,
00A8,
0080,
0050,
00C0;
