memory_initialization_radix=16;
memory_initialization_vector=
00D8,
FFC0,
0048,
FFEC,
0084,
FFE4,
005C,
0088,
007C,
007C,
0148,
00F8,
0070,
004C,
0080,
0068,
003C,
008C,
0080,
0060,
0038,
0028,
0104,
0094,
0088,
0090,
009C,
0000,
FFDC,
0034,
00C4,
FFB4,
0054,
00A0,
004C,
0044,
00A8,
0030,
007C,
0014,
007C,
00C8,
FFFC,
0068,
00AC,
00C4,
002C,
00A4,
0058,
FFE0,
0000,
0024,
0120,
FFC0,
0034,
005C,
0050,
007C,
0030,
00C0,
0028,
FFE8,
0024,
0088,
0004,
0080,
0088,
0060,
002C,
0010,
00AC,
0058,
00E8,
0050,
0060,
0058,
FFE8,
0088,
000C,
0064,
006C,
0024,
0010,
0060,
0070,
00B4,
0050,
0028,
00C8,
0080,
FFDC,
0030,
0028,
0064,
0080,
FFD4,
004C,
00D4,
0070,
001C,
0084,
0028,
00BC,
00AC,
001C,
0090,
0050,
00D0,
00BC,
00CC,
0090,
00CC,
00D8,
0074,
00E0,
0078,
00B0,
0068,
00B8,
00F4,
0088,
00D8,
0088,
00A0,
0068,
00E8,
00D0,
00AC,
0070,
FFD4,
007C,
0060,
0078,
0054,
FF70,
FFF4,
0088,
005C,
00C4,
00A8,
005C,
0008,
002C,
0144,
FFF0,
00F4,
00AC,
0050,
0010,
FFD8,
0054,
0094,
00B0,
0050,
0044,
0070,
003C,
0044,
0030,
0080,
0030,
FFF0,
0060,
0074,
00CC,
FFFC,
FFEC,
0004,
FFF8,
FFB4,
00B0,
0024,
FFD0,
FEF0,
003C,
0070,
0064,
0064,
0068,
0014,
FF7C,
FFD4,
00D4,
0020,
FF74,
00A4,
FFA8,
FFE0,
006C,
FF70,
0038,
FFA0,
008C,
000C,
004C,
00FC,
004C,
0098,
0058,
0044,
0098,
0034,
00DC,
0094,
006C,
00A8,
00CC,
00E8,
FFE0,
0068,
00D8,
0060,
00FC,
00CC,
0024,
FFC4,
0034,
0064,
00D4,
00AC,
009C,
FFEC,
007C,
0068,
00BC,
00C0,
0048,
0050,
0050,
00B4,
0090,
007C,
0088,
002C,
0078,
0038,
0090,
0078,
0028,
0014,
0078,
0050,
FFE0,
00B0,
0034,
0028,
00D0,
00C0,
0060,
00BC,
0048,
0020,
0000,
0014,
0024,
001C,
FFA4,
0050,
0028,
0014,
0054,
0028,
0104,
FFF0,
002C,
0060,
0028,
FFC8,
0014,
0024,
0048,
0128,
FFC8,
0030,
0028,
FFFC,
00A8,
FFF8,
0058,
0010,
00A0,
FFD0,
FFC4,
006C,
0054,
FFE8,
FFB4,
FFF0,
0044,
0030,
00BC,
0038,
0120,
0070,
00B0,
0034,
005C,
00F0,
0074,
0118,
FFF0,
FFFC,
0010,
0008,
FFF8,
0020,
00EC,
0040,
0020,
007C,
004C,
FFF0,
00D8,
0030,
FFA4,
002C,
0050,
0098,
0050,
009C,
006C,
FF64,
FFFC,
0018,
0054,
0048,
0064,
005C,
0104,
0054,
FFF8,
006C,
0054,
0030,
0038,
FFC4,
FFFC,
006C,
FFF4,
0018,
008C,
0054,
FF9C,
0100,
FFC4,
FFD8,
0078,
003C,
0048,
004C,
0074,
00A4,
0004,
0000,
00D0,
003C,
0048,
0030,
0048,
0014,
00A0,
FFD8,
00A0,
0074,
000C,
00CC,
0054,
00C4,
0080,
00CC,
004C,
0068,
0074,
0094,
000C,
0080,
FF9C,
FFD4,
0074,
0030,
0034,
003C,
0040,
0110;
