memory_initialization_radix=16;
memory_initialization_vector=
0034,
0064,
0074,
00D0,
00CC,
00D8,
0004,
00E4,
00A4,
00CC,
00B8,
009C,
0060,
0060,
0074,
00D4,
0044,
0098,
0044,
00AC,
0034,
00AC,
0058,
0054,
0024,
005C,
003C,
FFD4,
0078,
0000,
FFE0,
0078,
0044,
00B0,
0020,
0060,
0054,
0110,
009C,
00C8,
0034,
0110,
004C,
012C,
0040,
007C,
0064,
0058,
007C,
00B8,
0038,
0038,
00B8,
004C,
0000,
006C,
0048,
0050,
00DC,
00E8,
00D4,
008C,
00B0,
009C,
0038,
00B8,
0058,
00A4,
0054,
0064,
0084,
0068,
0010,
0044,
0054,
0054,
0068,
0020,
0034,
0080,
0000,
0064,
0010,
FFB4,
00A4,
FFF4,
006C,
0000,
FFC4,
0108,
005C,
00A0,
0064,
0010,
00A8,
FFE8,
008C,
0050,
00B0,
00D0,
002C,
00D4,
0078,
0148,
0024,
002C,
00D4,
004C,
0084,
0020,
00E8,
006C,
0044,
0028,
001C,
00FC,
0060,
0080,
0078,
0028,
00B0,
0084,
005C,
00B4,
00D0,
007C,
002C,
00C0,
0084,
007C,
003C,
0098,
FFFC,
0090,
00D0,
0084,
FFEC,
00C0,
0010,
00A8,
006C,
0088,
0080,
0080,
0074,
0068,
FFF0,
001C,
0010,
00CC,
0038,
0010,
0058,
0098,
00F8,
00F8,
0064,
001C,
00A0,
FFEC,
FF44,
00CC,
010C,
FF9C,
0080,
0060,
FFE0,
003C,
007C,
0064,
00F8,
0024,
0040,
FF38,
00A4,
0068,
00BC,
0070,
00B4,
00B4,
00D8,
00C0,
0050,
FFE4,
004C,
0040,
0050,
0098,
FFC4,
0104,
0104,
0020,
00CC,
00A8,
003C,
0090,
0078,
00C4,
006C,
00E8,
0120,
003C,
007C,
001C,
0058,
00C4,
0138,
FFA8,
0064,
0044,
0084,
0060,
0038,
0180,
008C,
0094,
FFFC,
006C,
00FC,
0048,
00A4,
0060,
0070,
0008,
0070,
0088,
00A4,
0038,
00CC,
FFC8,
002C,
004C,
00AC,
009C,
002C,
00D8,
002C,
006C,
00C0,
0098,
0068,
0068,
002C,
00A8,
00B0,
0054,
00A8,
008C,
0114,
004C,
0078,
00B4,
00D4,
0048,
0074,
007C,
0020,
00A8,
FFF4,
FFD8,
0074,
0048,
0070,
0010,
0064,
FFD8,
0030,
FFDC,
0038,
FFD8,
FFE8,
FFAC,
0020,
FFFC,
FFA4,
002C,
0004,
FFF0,
FF98,
0078,
0090,
0034,
FFA0,
0000,
0058,
0008,
0028,
0000,
FFD8,
0080,
005C,
FFFC,
0064,
0110,
FF8C,
0090,
0110,
0044,
0090,
00B4,
0090,
0118,
0018,
0014,
0038,
0084,
004C,
003C,
00F4,
0080,
002C,
0088,
00D0,
0058,
0088,
0000,
0060,
0004,
00B8,
0088,
00AC,
FFE4,
00C4,
0080,
0044,
0094,
014C,
00AC,
0094,
00AC,
FFB8,
001C,
00C4,
FFE0,
0054,
0054,
0074,
FFF0,
0084,
0040,
00AC,
010C,
FFF8,
0080,
0048,
0098,
0080,
0048,
012C,
0098,
007C,
004C,
0074,
00A0,
0088,
007C,
0054,
0054,
0074,
0038,
0034,
0058,
00A4,
FFFC,
FFF8,
000C,
0030,
008C,
0074,
0034,
0010,
0044,
006C,
FFB8,
006C,
004C,
0074,
0040,
0080,
0068,
0038,
001C,
00B8,
0084;
