memory_initialization_radix=16;
memory_initialization_vector=
FFD4,
0010,
0058,
00BC,
FFFC,
00BC,
0030,
FFE4,
00A0,
0110,
00D0,
0000,
0014,
005C,
00E4,
0060,
0024,
FFAC,
0008,
002C,
001C,
0008,
0050,
00E8,
0094,
0080,
0118,
0058,
FFA0,
FFF8,
FFBC,
00A4,
0090,
0048,
FFA8,
0088,
FFD0,
004C,
0108,
000C,
0074,
FFF4,
00E8,
00B4,
0068,
0064,
0058,
FFDC,
009C,
00CC,
00A8,
FFF8,
00D8,
0058,
0044,
0008,
0090,
00F8,
00B4,
0074,
00C8,
00D4,
0078,
0080,
0030,
0088,
0028,
010C,
004C,
002C,
00A0,
FFE0,
0104,
00DC,
004C,
00A0,
FFF4,
0068,
0064,
0118,
00E4,
003C,
004C,
00CC,
0068,
009C,
FFC0,
0060,
0054,
00EC,
FFC4,
0060,
0018,
0088,
0058,
004C,
0110,
FFB4,
0114,
0060,
0094,
0034,
00F0,
0048,
0108,
FF98,
0028,
00C0,
0044,
005C,
0030,
0038,
00B8,
010C,
00B4,
00BC,
003C,
0044,
00B4,
00B4,
00C8,
0018,
0068,
0088,
0070,
004C,
FF78,
007C,
00F0,
0010,
011C,
0030,
0008,
0118,
00AC,
0088,
009C,
00AC,
00F0,
0064,
010C,
FF9C,
001C,
003C,
006C,
00CC,
FFC8,
0054,
00D8,
FFFC,
00E4,
011C,
00A0,
0088,
0090,
0140,
FFCC,
007C,
0054,
006C,
00E0,
0000,
0120,
FFD4,
FF84,
0120,
00A4,
0048,
FFE8,
FFD4,
0004,
0020,
00DC,
FFE8,
FFE4,
004C,
00C0,
00B0,
00F8,
FFDC,
0034,
FFA4,
00C0,
0024,
00A4,
00F8,
00BC,
00BC,
011C,
00AC,
0094,
000C,
00D4,
0134,
FF88,
005C,
FF88,
0068,
0068,
FFF0,
FFF0,
0064,
FFDC,
00C8,
0028,
0108,
FFE8,
0118,
0104,
008C,
00D0,
00AC,
00B8,
00AC,
00F4,
00F8,
00C0,
0028,
00F0,
00F8,
0078,
0070,
FFF4,
001C,
0024,
00D0,
0084,
FFF4,
0078,
00B0,
00B0,
00A8,
007C,
FFFC,
00D0,
FFFC,
0114,
0038,
00EC,
0060,
0048,
00A0,
00F4,
0070,
0078,
0108,
FFE0,
0088,
002C,
00E4,
00E0,
00AC,
0084,
0050,
00E0,
0024,
0044,
00F8,
0100,
00A8,
0074,
0024,
00D4,
00B4,
00E4,
0048,
0044,
FF94,
FFF8,
00D4,
0150,
00CC,
0080,
00A8,
011C,
0068,
003C,
00B8,
0078,
00C4,
00D4,
001C,
00C4,
0030,
0034,
002C,
004C,
0078,
00E0,
0064,
012C,
008C,
FFC8,
0000,
0074,
00A4,
0090,
0100,
008C,
0008,
00D8,
0078,
0050,
001C,
011C,
0030,
009C,
005C,
0038,
00D8,
0084,
0034,
0020,
00C4,
FFD0,
00B8,
0050,
009C,
FFF8,
003C,
00FC,
0028,
0098,
003C,
FFEC,
008C,
0104,
FFA0,
00D0,
FFE0,
00C8,
0064,
FF98,
0060,
0070,
FFC4,
0058,
0130,
0064,
0048,
00B0,
00E8,
00D8,
00A4,
001C,
0098,
0048,
0114,
FFE4,
0088,
0024,
008C,
008C,
00D0,
00E0,
0074,
0048,
00C8,
009C,
FFA8,
002C,
00CC,
00D0,
005C,
0050,
0118,
FFF0,
00CC,
000C,
FFA0,
0084,
FFF4,
00A4,
0014,
008C,
00C0,
0038,
0030,
007C,
FFF0,
0118,
0060,
001C,
00F8,
00E0,
FFB8,
0078,
00A8,
FF28,
00B0,
00D0,
02B0,
0130,
0040,
0040,
00C0,
0318,
0108,
0108,
0160,
0120,
0168,
FF90,
00B0,
01A0,
0180,
01A0,
0100,
0090,
0068,
0018,
FF00,
0198,
0290,
FFC8,
00C0,
0070,
0130,
0050,
01E0,
0158,
0198,
00A8,
0140,
01C0,
01A0,
0298,
FFE8,
01D0,
00A0,
01E0,
0170,
0248,
0138,
FFD0,
0138,
0240,
0200,
0000,
00D8,
0198,
01C8,
00C0,
FFA8,
FFB0,
FF18,
0030,
FFE0,
0070,
0140,
0050,
0128,
0140,
0028,
01E8,
00A0,
0088,
01C8,
0158,
0008,
01C8,
0090,
0038,
0070,
0130,
0180,
0178,
0170,
0158,
0040,
00A8,
0120,
0020,
00B8,
0208,
0058,
0138,
0120,
0248,
0200,
0220,
02A0,
0028,
00E8,
0138,
0000,
FE28,
0258,
00F0,
01C0,
0128,
FFF0,
0110,
0100,
0110,
00F8,
00C0,
0210,
0150,
0220,
0018,
00B0,
0078,
FF38,
0178,
0020,
0020,
0118,
0008,
FFA0,
0118,
0058,
01E8,
02A8,
00C8,
FFF0,
FF70,
FFD8,
FFC0,
01F8,
0220,
0100,
0130,
00B0,
FF38,
00E0,
0108,
FFC8,
FF68,
0138,
0150,
00E0,
0058,
0108,
0130,
FF78,
01E8,
00C0,
00B0,
00D0,
00A0,
0098,
FFF0,
00E8,
0028,
0018,
00C8,
00C0,
0018,
0118,
0058,
FFE8,
FFD8,
0128,
0110,
01A8,
01C0,
00E0,
0100,
0240,
01D0,
0130,
00D8,
0290,
0188,
FFE0,
0240,
0230,
FFE8,
00A0,
0100,
0138,
0208,
0230,
0050,
0240,
0120,
0068,
00A8,
FFD0,
00F0,
01A8,
0088,
0278,
00A8,
0060,
01C0,
0228,
0150,
0170,
00C0,
0060,
0070,
0150,
01C0,
0190,
0050,
01C0,
00B8,
FFD0,
01D8,
00D0,
0088,
0100,
01E8,
0200,
00C0,
01B8,
00C8,
0088,
0178,
01A0,
00A8,
01A0,
0098,
0090,
01C8,
FFC8,
0008,
0058,
0098,
00E0,
01C0,
01B0,
01B0,
00D0,
0168,
0008,
0020,
0018,
0290,
00C8,
01C0,
0108,
0158,
00E0,
0290,
0070,
00E8,
00B8,
0110,
0138,
0048,
0038,
0150,
01C0,
01F8,
01E8,
00E0,
0100,
01A0,
00D8,
0100,
FF68,
0220,
FF40,
0050,
00F8,
0028,
FFF8,
0138,
0048,
0148,
00B8,
0178,
0130,
0040,
0180,
0198,
0240,
0100,
01F8,
0108,
0210,
01F8,
0168,
00F0,
0180,
0000,
01A8,
0080,
00D0,
0100,
0208,
0050,
00C8,
00A8,
0100,
00F8,
FFF8,
00A0,
0118,
0098,
0228,
0228,
01D0,
01F0,
00C8,
FFB8,
00F8,
0108,
0260,
0130,
0040,
0070,
0160,
FF70,
0258,
00B8,
0020,
0078,
01B8,
FFB0,
0058,
00D8,
0198,
FF78,
0260,
00E0,
0078,
FFD0,
0260,
01F0,
0148,
01C0,
00F0,
0200,
0048,
0198,
01E8,
00C8,
00F8,
01B0,
00B8,
0168,
0070,
0228,
0018,
0228,
0198,
0178,
01A0,
0128,
0050,
0090,
0208,
0088,
0070,
0148,
00A8,
0008,
0110,
0288,
FFF8,
0198,
0128,
00C0,
0050,
00A0,
01D8,
01F8,
01E0,
0070,
01D8,
0040,
01B0,
FEB8,
0188,
0120,
0268,
0208,
0140,
0148,
0168,
0108,
00D0,
00F8,
0000,
0168,
00C8,
02E0,
0190,
FFA8,
0118,
0068,
00B8,
01F8,
FFD0,
FFF0,
0188,
0248,
0008,
FFA8,
0170,
0030,
0140,
0208,
0038,
FFE0,
0040,
0128,
00F0,
FFE0,
01F8,
01D0,
0120,
0038,
0160,
01C0,
00D0,
01F0,
00C0,
0050,
0138,
0190,
0170,
0218,
0028,
0200,
0138,
0170,
0058,
0058,
0270,
0050,
FF90,
0018,
0178,
01C8,
0188,
0080,
0128,
00C8,
0158,
0078,
0010,
0148,
00A8,
0068,
00A0,
0158,
0280,
0150,
FFE8,
0220,
00A8,
00E8,
0170,
0180,
FFB8,
0258,
00F8,
00F8,
00A8,
FFD0,
FFA8,
00A8,
0100,
00D8,
0098,
0168,
00A8,
0118,
0018,
0140,
FF00,
0050,
01B0,
00A8,
0270,
0020,
0068,
0160,
01B0,
0110,
0178,
00F8,
0018,
01E0,
01A8,
0138,
0040,
01F0,
00D8,
00E0,
0030,
0260,
0208,
00F8,
0090,
0048,
0090,
00E8,
00D8,
FFE0,
0140,
0188,
0068,
0200,
00C0,
0038,
00C0,
0110,
0060,
01D8,
02D8,
02B0,
01B0,
0270,
0138,
0138,
0128,
0110,
0068,
0108,
0040,
0060,
01C0,
02B8,
0270,
00E0,
0128,
0088,
0178,
0080,
01F0,
01C8,
FFF0,
0120,
00E8,
00D0,
0098,
00A8,
0008,
0160,
0190,
0068,
0178,
00C0,
02A0,
0058,
0178,
01E8,
00A8,
FFF8,
0038,
0208,
00A0,
0100,
00B8,
00A0,
0268,
00A8,
0180,
01A0,
00D8,
01E0,
00D8,
0178,
01A8,
0020,
0018,
00F8,
0110,
00B8,
0228,
0140,
0178,
00B0,
01E0,
0160,
0140,
0110,
0148,
0170,
0168,
0110,
0000,
0228,
0098,
0120,
0078,
01B8,
02A8,
0158,
00E8,
0158,
00F0,
01A8,
01D8,
0130,
0158,
0220,
0020,
0098,
00C8,
0158,
0008,
FF98,
0198,
02A0,
0088,
0108,
01E8,
0188,
0120,
FFD0,
0108,
01D8,
00B0,
FFE0,
0120,
0160,
FF98,
00F0,
FFD0,
02B0,
0020,
0050,
0130,
0068,
00D0,
FF48,
00C8,
00D0,
0160,
00E0,
0180,
0010,
0180,
0140,
0128,
0028,
00C8,
0078,
0128,
FFE0,
FFB8,
00F0,
0168,
0118,
FFE8,
0148,
00C0,
0120,
01F0,
FFD0,
0178,
01C0,
0018,
0118,
0078,
0020,
00E8,
0130,
0140,
00A0,
0218,
FFD8,
00B0,
0058,
FFD0,
01D0,
00D0,
0078,
0168,
0048,
0018,
0018,
00F8,
FF88,
00E8,
0088,
00D8,
0078,
00F0,
0128,
FFF0,
0088,
0138,
0178,
0020,
0008,
0048,
0148,
00F0,
0078,
FF58,
00E0,
01C0,
01B8,
0170,
00C0,
0238,
01B0,
0138,
00F0,
0198,
0060,
FFF0,
00F0,
00D0,
00D8,
00F8,
0018,
01F0,
0050,
0178,
00C8,
00F0,
01F0,
01C0,
0130,
0038,
00B8,
00A8,
0188,
0008,
0068,
00E0,
0160,
0140,
01B8,
00F8,
0070,
FFF0,
00D8,
0120,
0178,
0238,
0190,
0238,
01F0,
0090,
FF50,
0148,
01F8,
0000,
0188,
0110,
00D0,
0190,
0230,
0140,
0140,
01C8,
0140,
02B0,
00C8,
0178,
00B8,
0168,
0068,
01A8,
0070,
00A0,
00F8,
01E8,
FFC0,
0148,
0100,
0188,
0268,
00F8,
0110,
0268,
0178,
0080,
01F8,
0270,
00A8,
0220,
0050,
0158,
00E8,
0100,
0118,
0188,
FFF0,
01E0,
0098,
FFF8,
0058,
FED0,
FFF0,
0030,
00C8,
0260,
0108,
00C0,
0118,
0060,
0268,
FFB8,
0018,
0050,
00E0,
0290,
FE68,
0048,
FF48,
0258,
00C8,
FFB0,
FFE0,
01B8,
00B8,
00E0,
0148,
0108,
01E8,
00E0,
00D8,
0118,
0150,
0268,
0198,
FFD0,
00E8,
FF08,
0158,
00D8,
FFF0,
0150,
0160,
0150,
00E0,
0150,
0030,
01F8,
0030,
0118,
02E0,
00D0,
00C0,
01F8,
00A0,
0028,
00F0,
00D0,
0080,
00F0,
FFB0,
0208,
0150,
0070,
00A0,
00E8,
0118,
FFF0,
0130,
00D0,
01E0,
01F8,
0010,
01F0,
FFE0,
FF98,
0090,
00D0,
0010,
0008,
01B8,
0108,
0140,
00F8,
0070,
0178,
0110,
0240,
0068,
0170,
00A0,
01C8,
01C0,
00C0,
00C8,
01C0,
0178,
01D8,
0108,
00D0,
0048,
01E8,
0108,
00D0,
00B8,
0220,
00F8,
0228,
FF30,
00B0,
00B0,
0058,
0078,
00F8,
FFE8,
FFF0,
0138,
0108,
00D0,
00F0,
01D8,
01B0,
0100,
0140,
0118,
0118,
0068,
0010,
01D8,
FFB8,
01C8,
0180,
0148,
02C8,
0110,
00C8,
0058,
00C8,
00A8,
0108,
FFF0,
01A8,
00D8,
0248,
0130,
0078,
0158,
0020,
0018,
0140,
0110,
0048,
0060,
0078,
0030,
01F8,
00E8,
0198,
00A8,
00D8,
0120,
0190,
FE00,
0070,
00E0,
0160,
0148,
0150,
0190,
FFC0,
0108,
FF88,
00F8,
01B0,
01C0,
0060,
0110,
0158,
0070,
0158,
FF50,
0198,
0158,
0138,
0028,
00C8,
00A8,
0140,
0148,
0070,
0180,
0298,
0258,
01D8,
00D8,
FFB8,
0070,
0018,
0168,
0120,
0000,
01D8,
0120,
00D0,
00B8,
0140,
02E8,
0060,
00D0,
0100,
00E8,
01A8,
0160,
0080,
01F8,
0098,
0158,
0150,
00F8,
01E8,
00F0,
00B8,
0138,
01E8,
0208,
00D8,
00A0,
00F8,
0178,
0088,
FFA0,
0168,
00B8,
0138,
0140,
0088,
01A0,
0120,
0030,
01C0,
0140,
0038,
0120,
0128,
0108,
0090,
0080,
FFD0,
0288,
0028,
0048,
01A8,
0140,
0208,
01A8,
00B0,
FFB0,
0238,
01C8,
0130,
00D0,
0008,
0048,
00F0,
0090,
0060,
FFD8,
FF60,
0110,
01A0,
0098,
0078,
FF70,
0050,
02A0,
00A8,
0018,
0138,
00D0,
00E8,
01F8,
0160,
FEC0,
01C8,
FFA8,
0100,
00B8,
0048,
0028,
00A0,
0098,
FF68,
0158,
0170,
00F8,
0030,
0010,
02D0,
02F0,
0108,
0038,
0158,
0220,
FF80,
FFF0,
01D0,
0188,
0230,
FFC0,
0040,
0018,
0258,
0008,
0038,
0058,
FF18,
0110,
00F0,
0028,
01E8,
FF70,
0120,
01A8,
0218,
0080,
0038,
01D0,
0248,
0268,
02A0,
0110,
0160,
FF60,
00C8,
01C0,
00D8,
0108,
00F8,
0090,
0188,
0018,
0018,
00D8,
0070,
0210,
0118,
00C8,
0178,
00C8,
0190,
00E0,
0010,
00F8,
0148,
00B8,
00A0,
0078,
0120,
0110,
0278,
0048,
0108,
01C8,
0108,
0038,
0078,
FFF8,
0080,
0270,
0120,
0130,
00E8,
0208,
00D0,
0070,
0160,
0200,
02A8,
01B8,
0118,
0178,
0200,
0048,
0038,
0088,
0128,
00D0,
01B8,
00C0,
0110,
0160,
0218,
0010,
0170,
01C8,
0188,
0110,
0050,
0068,
0260,
0208,
FFF8,
0198,
0070,
0180,
0158,
0018,
0118,
0210,
FFF0,
00E8,
00D8,
0150,
00F0,
FF48,
0090,
FFF8,
0020,
0150,
0150,
0118,
02E0,
0148,
0190,
00F0,
0058,
0160,
00E0,
0160,
00F0,
0070,
0160,
0148,
01F8,
00E0,
0230,
02B0,
FF28,
00A0,
0198,
00C0,
0108,
0130,
01C8,
0128,
0200,
0158,
0090,
0130,
FF30,
FFD0,
00C8,
0010,
0040,
0100,
01A8,
01C8,
0028,
0090,
01E8,
FFF0,
FFC0,
0078,
01B0,
01B0,
0080,
0108,
0060,
0178,
0060,
02A8,
00D8,
0098,
0190,
0108,
0100,
0048,
0108,
01B0,
0118,
00F8,
0160,
0040,
0100,
0090,
0190,
FFD8,
0060,
0100,
00E0,
FFF0,
0168,
FF10,
0068,
01D0,
00C8,
FFB8,
0098,
0208,
0138,
FFC0,
01B8,
0028,
0248,
0140,
0148,
0170,
01D8,
0280,
01D0,
0160,
0038,
0000,
00B8,
FF88,
FFF8,
01B0,
FFB8,
FFE0,
01D8,
01B0,
0090,
0060,
0028,
FFA0,
FF38,
0090,
0178,
0088,
FFB8,
0148,
0080,
0108,
0040,
0218,
0150,
00F8,
0060,
02A8,
03D0,
FFB0,
00A0,
0138,
01D8,
0060,
00D0,
01B0,
00B8,
00D0,
FFE0,
01E0,
01C8,
0208,
0228,
FE58,
0188,
01B0,
0140,
FFE0,
FFC0,
FFE0,
0170,
01C0,
0190,
00D0,
00D0,
00A8,
FFB8,
00B0,
0090,
0108,
01C0,
00E8,
00A8,
0100,
00B8,
0180,
0110,
0048,
01A0,
0048,
0290,
0078,
0138,
01C8,
0198,
0030,
FED8,
01C0,
0130,
0130,
00D8,
0160,
00A0,
00E8,
0118,
0198,
00B8,
01D8,
0178,
0170,
0048,
0168,
0190,
0128,
0190,
0138,
0068,
0150,
0120,
0208,
0040,
0090,
02D0,
0210,
0168,
0108,
0198,
0068,
0158,
01A0,
0060,
0060,
0040,
FF48,
0008,
0170,
0268,
0120,
0118,
0078,
00B8,
00C8,
FFC0,
0060,
0178,
0190,
FFE0,
FFF0,
00E0,
0240,
0058,
0198,
0190,
0110,
0048,
01E0,
00D0,
0078,
0008,
00C8,
0150,
0178,
0290,
FEF8,
0128,
00C0,
0120,
0250,
00B8,
0170,
0108,
01A0,
0180,
00C8,
0028,
0180,
0088,
0008,
00E0,
FFF0,
0108,
00B8,
0050,
0220,
0048,
0138,
01A0,
FFE8,
00B8,
0240,
00A0,
0068,
0138,
FFA8,
0018,
0088,
00E8,
0128,
01F8,
0058,
0108,
0138,
0140,
01C0,
0028,
0148,
0180,
0110,
0078,
0208,
0138,
0110,
00D0,
0140,
00B8,
01D8,
0148,
0160,
01F8,
0158,
01A8,
02E8,
0048,
0028,
01C8,
0048,
00F8,
0288,
01E8,
0128,
00D8,
0180,
00C8,
FFD8,
0150,
0060,
0100,
0078,
0180,
0120,
0230,
FF60,
0148,
01F0,
00A0,
0100,
01D8,
00DC,
00A0,
0048,
006C,
006C,
007C,
0078,
0054,
0098,
007C,
0080,
0044,
0038,
013C,
00D4,
0084,
0094,
006C,
00A8,
0068,
FFFC,
00C8,
FFD8,
0018,
0038,
0030,
0084,
0068,
FFC8,
00B4,
009C,
00A0,
0030,
0058,
0074,
0080,
0078,
FFEC,
FFFC,
0070,
005C,
0050,
00A8,
00F4,
00A4,
0060,
0054,
0070,
00B0,
00AC,
00DC,
00C0,
0040,
0054,
012C,
0000,
0090,
FFE0,
0030,
00F4,
00C0,
0024,
005C,
00A4,
0030,
00A8,
0068,
008C,
008C,
FFEC,
0020,
FFF0,
00A8,
0084,
0074,
0090,
FFCC,
0038,
009C,
0154,
0088,
0070,
004C,
0050,
0004,
0080,
0070,
00D8,
0024,
0054,
0014,
0070,
FFC8,
0034,
00B0,
0088,
0098,
0028,
007C,
009C,
0048,
002C,
00C4,
00C0,
0080,
0038,
FFE8,
0038,
004C,
00A4,
00C0,
0098,
0000,
00CC,
00C0,
00A0,
001C,
0050,
0094,
0094,
00F8,
0080,
00B8,
00A4,
0094,
00BC,
0064,
00D4,
0090,
0068,
0050,
0074,
007C,
00A0,
00AC,
00B4,
00C0,
0084,
0040,
0098,
00EC,
0068,
0048,
009C,
FFFC,
00B4,
FFE4,
0098,
0090,
009C,
0080,
0088,
00D4,
00E8,
0048,
0090,
00E8,
0084,
00E8,
0048,
00BC,
0094,
00A4,
00C4,
0044,
00B0,
00A4,
006C,
0080,
FFE0,
003C,
00A0,
0090,
FFDC,
00E0,
00AC,
005C,
006C,
007C,
0048,
001C,
006C,
0048,
FFE4,
0070,
00C4,
006C,
0098,
0090,
0074,
0054,
0030,
0044,
0010,
0088,
0098,
0070,
00B4,
00E0,
0070,
0000,
0054,
003C,
005C,
0090,
0080,
0028,
00D8,
0094,
0088,
FFE8,
0084,
00A8,
007C,
00D0,
00B0,
00AC,
0040,
0098,
0028,
0098,
0058,
00A8,
0074,
0054,
0014,
00C4,
0090,
0098,
00A0,
00BC,
0028,
0070,
00B0,
007C,
0070,
FFDC,
FFF0,
0050,
00CC,
0078,
00B4,
00D4,
010C,
00B4,
0080,
0094,
00D4,
00C8,
0070,
0070,
005C,
00A8,
001C,
0094,
006C,
FFEC,
00BC,
008C,
0088,
0078,
00B0,
00F8,
0024,
009C,
004C,
0088,
0070,
FFAC,
00C8,
00A4,
00E8,
0040,
0088,
0084,
00D0,
00F0,
0090,
0088,
0074,
00B4,
00B0,
00A8,
0098,
0090,
007C,
005C,
0090,
0044,
0090,
0068,
00B0,
0040,
FFEC,
FFE4,
00D4,
0090,
009C,
00C4,
0054,
00D8,
000C,
0088,
0060,
0040,
0074,
00B8,
0098,
00B8,
00E4,
0080,
012C,
0030,
004C,
00BC,
0040,
0018,
0078,
0048,
0094,
0040,
0024,
0070,
0074,
00B0,
00E0,
003C,
009C,
0088,
00B4,
0070,
0068,
0004,
005C,
009C,
FFB0,
005C,
0098,
00A0,
009C,
0094,
0078,
007C,
008C,
00B8,
0060,
00CC,
0088,
0078,
0008,
0030,
005C,
0028,
00B8,
0068,
0040,
002C,
00A8,
0040,
0094,
FFF0,
0068,
008C,
00EC,
0070,
00D0,
0044,
0060,
00D4,
004C,
0060,
009C,
0068,
009C,
0090,
00A0,
007C,
0014,
00AC,
0078,
0040,
0008,
00E0,
0060;
