memory_initialization_radix=16;
memory_initialization_vector=
39,
49,
37,
3D,
23,
57,
25,
4B,
D9,
06,
2F,
44,
29,
36,
2F,
4B,
4B,
58,
2E,
23,
2D,
3D,
52,
1F,
66,
59,
67,
5C,
5F,
1A,
2B,
24,
33,
4C,
25,
34,
4F,
07,
1F,
46,
37,
3C,
22,
17,
4B,
2E,
21,
21,
47,
68,
2B,
5A,
3C,
57,
25,
3F,
31,
44,
4C,
36,
48,
44,
18,
51,
35,
3C,
3D,
5A,
13,
19,
23,
26,
37,
63,
5B,
34,
4A,
2B,
38,
6B,
25,
28,
21,
20,
51,
61,
53,
3D,
21,
57,
43,
2F,
E1,
43,
45,
26;
