memory_initialization_radix=16;
memory_initialization_vector=
39,
49,
37,
3D,
23,
57,
25,
4B,
D9,
06,
2F,
44,
29,
36,
2F,
4B,
4B,
58,
2E,
23,
2D,
3D,
52,
1F,
66,
59,
67,
5C,
5F,
1A,
2B,
24,
33,
4C,
25,
34,
4F,
07,
1F,
46,
37,
3C,
22,
17,
4B,
2E,
21,
21,
47,
68,
2B,
5A,
3C,
57,
25,
3F,
31,
44,
4C,
36,
48,
44,
18,
51,
35,
3C,
3D,
5A,
13,
19,
23,
26,
37,
63,
5B,
34,
4A,
2B,
38,
6B,
25,
28,
21,
20,
51,
61,
53,
3D,
21,
57,
43,
2F,
E1,
43,
45,
26,
06,
31,
01,
34,
0A,
1C,
13,
2F,
3D,
3E,
15,
2D,
3A,
0A,
2E,
39,
35,
2C,
33,
2B,
3C,
37,
31,
31,
36,
2D,
2C,
24,
3B,
2E,
1B,
28,
2B,
13,
34,
29,
25,
3B,
00,
36,
3D,
3C,
37,
1C,
38,
18,
33,
26,
2C,
2F,
3C,
39,
1A,
2E,
1F,
23,
31,
1F,
47,
1F,
23,
3A,
13,
22,
39,
34,
21,
1C,
2D,
2B,
18,
1C,
38,
26,
37,
3F,
34,
37,
1C,
ED,
12,
3A,
36,
23,
24,
36,
20,
35,
F2,
1B,
34,
27,
07,
3A,
3F,
27,
33,
1B,
2E,
3E,
27,
EA,
26,
2C,
2B,
3A,
2C,
ED,
20,
3B,
1D,
1C,
32,
36,
1E,
12,
32,
21,
2F,
35,
2D,
32,
3A,
1E,
31,
20,
3A,
29,
E1,
10,
29,
3F,
28,
26,
2D,
2F,
37,
3C,
37,
2C,
30,
FA,
2B,
05,
3A,
2E,
20,
30,
24,
15,
3D,
36,
2A,
37,
1F,
3A,
2C,
30,
12,
11,
01,
29,
38,
29,
3D,
1E,
36,
39,
1F,
3C,
2C,
34,
18,
2A,
18,
32,
25,
07,
1E,
33,
3B,
2C,
15,
2D,
2A,
39,
07,
24,
34,
2E,
28,
3E,
23,
24,
1C,
14,
24,
1D,
10,
26,
17,
32,
38,
2E,
1C,
0A,
1A,
1F,
4A,
0F,
1D,
22,
16,
2B,
23,
45,
10,
19,
1F,
1D,
0E,
08,
08,
20,
15,
20,
40,
24,
1D,
29,
22,
3C,
33,
39,
28,
26,
22,
1B,
0D,
1F,
26,
38,
22,
24,
13,
16,
1B,
33,
26,
36,
35,
34,
10,
2C,
2A,
34,
24,
24,
36,
1C,
27,
18,
04,
27,
1B,
2C,
27,
32,
39,
0B,
0F,
2B,
3F,
2C,
09,
2A,
D8,
25,
2E,
39,
25,
1B,
25,
3A,
0D,
24,
24,
44,
25,
15,
1C,
26,
2A,
2F,
2F,
15,
34,
24,
3C,
19,
31,
34,
24,
1E,
21,
2C,
2B,
2C,
37,
11,
1C,
10,
25,
22,
1C,
20,
1D,
1A,
32,
2B,
23,
1B,
2C,
0D,
1B,
28,
25,
1D,
2F,
1B,
19,
21,
26,
46,
29,
25,
0E,
1D,
C2,
20,
28,
05,
1A,
20,
14,
20,
17,
2F,
25,
1F,
27,
37,
1A,
2B,
0E,
29,
16,
3D,
39,
3E,
2C,
2B,
0D,
29,
25,
17,
3B,
14,
29,
25,
27,
F2,
27,
FE,
04,
2D,
21,
34,
18,
1C,
31,
30,
2C,
20,
22,
05,
13,
31,
2C,
33,
30,
34,
22,
20,
2D,
0F,
3E,
3B,
25,
15,
26,
2D,
13,
32,
27,
23,
14,
1E,
1F,
34,
04,
25,
0D,
0F,
34,
46,
05,
22,
10,
29,
11,
1E,
13,
35,
23,
28,
2F,
25,
E5,
2E,
28,
1A,
31,
19,
15,
27,
16,
2F,
1E,
28,
39,
2A,
1A,
2B,
1D,
16,
1A,
14,
22,
15,
10,
28,
22,
1E,
2E,
13,
46,
2F,
29,
2E,
31,
2E,
28,
14,
19,
0D,
25,
35,
2D,
28,
0F,
30,
22,
1B,
34,
18,
1A,
26,
2E,
2D,
02,
2A,
1A,
18,
FC,
0F,
2A,
2C,
1E,
23,
16,
2F,
27,
36,
01,
35,
22,
3A,
15,
26,
2E,
34,
25,
2C,
2A,
0A,
25,
0A,
17,
2E,
1C,
20,
23,
22,
23,
2C,
16,
34,
24,
2F,
29,
1D,
19,
29,
17,
36,
2F,
C3,
27,
28,
3E,
33,
1E,
24,
1D,
23,
34,
32,
1E,
08,
19,
25,
1C,
01,
23,
3E,
2F,
20,
12,
26,
2A,
30,
21,
1E,
35,
27,
07,
16,
30,
32,
34,
09,
39,
28,
1B,
0F,
23,
1B,
22,
FE,
20,
42,
11,
1B,
2C,
1C;
